<pad>	0
<unk>	0
<s>	0
</s>	0
<blank>	0
s	-3.1726
▁what	-3.22
▁the	-3.45047
▁is	-3.45956
▁	-3.50481
y	-3.61813
▁a	-3.79586
▁me	-3.86394
▁m	-3.99866
▁to	-4.25939
e	-4.41769
t	-4.45251
▁show	-4.58686
▁how	-4.77547
d	-4.77595
▁in	-4.81644
▁i	-5.00179
a	-5.13904
▁for	-5.24032
▁t	-5.2463
▁of	-5.27113
▁play	-5.30532
▁on	-5.31518
▁do	-5.318
▁that	-5.38125
ing	-5.38272
▁im	-5.38963
est	-5.42965
▁it	-5.46604
m	-5.47122
▁re	-5.52286
▁s	-5.5338
▁w	-5.54094
▁this	-5.5429
ic	-5.57148
o	-5.57639
urn	-5.68468
▁se	-5.68481
▁you	-5.69176
▁an	-5.73372
ly	-5.78304
▁near	-5.79302
▁time	-5.85076
▁who	-5.85537
r	-5.88565
tell	-5.90296
n	-5.92786
ate	-5.96237
end	-5.96459
▁fin	-5.96534
▁monica	-5.98046
▁meeting	-5.98064
▁call	-5.98324
▁f	-6.01713
▁where	-6.05267
lo	-6.0539
st	-6.09003
▁are	-6.11647
le	-6.12628
▁remind	-6.12634
▁check	-6.12889
▁stop	-6.12927
en	-6.12929
ch	-6.14046
▁ten	-6.14122
▁was	-6.14484
out	-6.15401
▁co	-6.16775
▁good	-6.21213
▁two	-6.21215
▁minute	-6.21246
▁ab	-6.22511
▁we	-6.23682
many	-6.24074
al	-6.24109
on	-6.2493
i	-6.25179
▁con	-6.25648
take	-6.28285
es	-6.29024
▁explain	-6.30304
▁trans	-6.30324
▁price	-6.30324
▁start	-6.30382
▁when	-6.30557
▁did	-6.30696
▁list	-6.31033
p	-6.32293
ther	-6.34153
late	-6.3463
▁new	-6.36789
nt	-6.3795
l	-6.38299
ver	-6.39928
▁cancel	-6.40304
▁defin	-6.40309
nd	-6.40438
▁be	-6.40529
▁flight	-6.40905
ation	-6.40976
▁mus	-6.41385
▁hel	-6.42941
▁one	-6.44867
▁p	-6.45919
▁movie	-6.51418
▁up	-6.51754
▁bu	-6.52981
er	-6.53728
▁b	-6.53986
▁ca	-6.54809
u	-6.55017
by	-6.55697
▁mu	-6.57006
nver	-6.61162
an	-6.62351
▁next	-6.63935
▁today	-6.64083
▁g	-6.64375
▁off	-6.64566
▁timer	-6.64653
▁read	-6.64839
▁cre	-6.65246
▁air	-6.6527
ack	-6.6531
ell	-6.65398
▁lights	-6.66308
▁fi	-6.67006
f	-6.67159
ed	-6.68866
▁de	-6.68943
ind	-6.69241
is	-6.69649
some	-6.7042
▁un	-6.71121
▁tr	-6.71808
▁c	-6.72689
▁am	-6.7358
port	-6.74567
ke	-6.75511
▁d	-6.78079
▁wh	-6.78134
▁message	-6.78201
▁fifty	-6.78202
ake	-6.79128
▁work	-6.80024
side	-6.80186
▁car	-6.81686
ar	-6.83642
▁sy	-6.8426
ng	-6.84706
ity	-6.85588
▁qu	-6.87764
ence	-6.88899
om	-6.89446
▁wor	-6.90273
g	-6.9175
▁r	-6.93901
in	-6.94541
▁afternoon	-6.94867
▁number	-6.94867
▁york	-6.94867
▁ocean	-6.94868
▁week	-6.94872
▁happ	-6.94876
▁capital	-6.94883
▁world	-6.94886
▁change	-6.94891
phone	-6.94983
comm	-6.9508
all	-6.95168
▁reminder	-6.9554
▁n	-6.95573
ok	-6.95727
▁email	-6.95991
▁e	-6.96126
ck	-6.96556
▁doing	-6.96917
▁calculat	-6.96998
▁can	-6.97734
▁note	-6.98399
▁tra	-6.99618
dd	-7.01323
most	-7.01508
ur	-7.01684
▁there	-7.02107
ter	-7.02257
▁see	-7.03672
et	-7.03772
um	-7.03922
▁di	-7.03994
▁out	-7.05429
ve	-7.05587
▁dis	-7.07592
ion	-7.07942
c	-7.08671
▁h	-7.10144
re	-7.10414
ce	-7.10568
ton	-7.11283
▁war	-7.11908
ill	-7.12576
li	-7.13719
ive	-7.13758
ove	-7.14851
▁john	-7.14867
▁planet	-7.1487
ustra	-7.14875
▁japan	-7.14885
▁have	-7.14885
▁hotel	-7.14889
▁stock	-7.14892
▁pause	-7.14929
ain	-7.1499
▁help	-7.15127
▁right	-7.15146
▁five	-7.15426
▁order	-7.15627
▁del	-7.16751
teen	-7.16874
▁say	-7.16904
▁day	-7.17273
iz	-7.17851
▁shop	-7.1869
▁no	-7.20124
▁rid	-7.20251
b	-7.20529
at	-7.21188
▁far	-7.21478
it	-7.22049
k	-7.22648
▁ne	-7.23013
ant	-7.24253
▁su	-7.24556
ig	-7.25151
▁sp	-7.25432
▁wa	-7.25551
▁fro	-7.27079
▁al	-7.27259
▁op	-7.27409
▁hi	-7.27648
or	-7.28494
syn	-7.31629
ll	-7.31859
ad	-7.32388
▁ho	-7.32532
▁mo	-7.32829
sic	-7.32914
▁mom	-7.33879
x	-7.35529
▁your	-7.35942
▁nine	-7.3601
tion	-7.36108
▁so	-7.36168
▁light	-7.36203
▁not	-7.36361
ne	-7.36589
ial	-7.3772
▁bo	-7.38445
staurants	-7.39683
▁document	-7.39867
▁language	-7.39867
▁spanish	-7.39867
▁sleep	-7.39867
▁twenty	-7.39867
▁hundred	-7.39867
▁percent	-7.39867
▁invented	-7.39867
▁tokyo	-7.39868
▁america	-7.39869
▁milk	-7.39893
▁thirty	-7.39903
▁prime	-7.39935
▁down	-7.39955
▁cold	-7.39969
▁long	-7.39981
▁six	-7.40016
▁table	-7.40018
▁zo	-7.40093
▁due	-7.40115
▁home	-7.40128
▁back	-7.40288
▁eight	-7.40304
▁night	-7.40484
▁door	-7.4055
▁tv	-7.40575
▁ja	-7.40596
▁block	-7.40891
to	-7.41238
▁jo	-7.41303
▁hours	-7.41626
▁eg	-7.4163
▁la	-7.4175
▁pre	-7.4252
th	-7.42916
▁rem	-7.43546
log	-7.44048
▁stor	-7.44134
▁li	-7.44873
▁sound	-7.45176
eat	-7.45371
▁fre	-7.46921
▁lo	-7.47033
tom	-7.4842
ness	-7.48533
▁vol	-7.49066
▁l	-7.49162
ro	-7.49784
eum	-7.50172
ete	-7.50453
are	-7.51017
as	-7.51774
ap	-7.52461
ume	-7.52853
▁hu	-7.53167
phy	-7.53201
ute	-7.55449
ord	-7.5613
ower	-7.56388
tem	-7.56654
arm	-7.56863
▁make	-7.5711
les	-7.59925
▁ma	-7.59985
ment	-7.60766
ry	-7.61149
ul	-7.61667
does	-7.61945
w	-7.61975
red	-7.62897
▁seven	-7.63688
ami	-7.64646
the	-7.64691
il	-7.64843
ym	-7.6524
ange	-7.65653
▁fl	-7.65668
ted	-7.67556
work	-7.6824
▁fr	-7.68606
h	-7.696
▁sol	-7.69959
land	-7.70339
ries	-7.70441
nos	-7.72149
bu	-7.72231
▁net	-7.72991
▁ar	-7.73008
▁pho	-7.73119
▁vo	-7.7316
security	-7.732
▁bitcoin	-7.732
▁project	-7.732
▁tomorrow	-7.732
▁twelve	-7.732
▁focus	-7.732
▁dollars	-7.732
▁grocer	-7.732
▁health	-7.73201
▁calendar	-7.73201
▁circ	-7.73201
▁atlant	-7.73201
▁london	-7.73201
▁internet	-7.73202
▁zero	-7.73202
▁earth	-7.73203
▁blue	-7.73204
▁score	-7.73205
▁three	-7.73207
▁great	-7.73208
▁clear	-7.73208
▁speak	-7.73208
source	-7.73212
▁popula	-7.73213
▁feet	-7.73218
▁german	-7.73224
▁think	-7.73226
▁factor	-7.73226
▁bills	-7.73229
▁close	-7.73232
▁cloud	-7.73241
gree	-7.73243
▁rental	-7.7326
▁color	-7.7328
▁mode	-7.73287
▁paris	-7.73294
▁computer	-7.73297
▁beach	-7.7331
▁game	-7.73338
▁water	-7.73364
▁four	-7.73398
▁statu	-7.73422
▁comp	-7.73464
▁need	-7.73532
▁song	-7.73546
▁going	-7.73564
▁deal	-7.73701
▁tip	-7.73729
▁mi	-7.7379
▁workout	-7.73811
ypt	-7.73902
▁mark	-7.73983
▁sure	-7.74063
▁old	-7.74123
vide	-7.74212
▁schedule	-7.74231
▁pounds	-7.74232
▁las	-7.74235
used	-7.74291
▁listen	-7.74323
▁city	-7.74419
▁rain	-7.74555
▁tex	-7.74802
lia	-7.74953
▁le	-7.75238
▁per	-7.75255
▁hear	-7.75347
unny	-7.75485
▁rep	-7.75501
▁vac	-7.75582
ft	-7.75727
▁thanks	-7.75791
nch	-7.76061
her	-7.76163
▁sho	-7.76175
▁pay	-7.76183
▁vi	-7.76216
▁franc	-7.76362
bert	-7.76433
▁heat	-7.76536
▁ch	-7.76678
now	-7.77219
ty	-7.77225
tein	-7.77987
▁ex	-7.78215
▁shar	-7.78486
▁brea	-7.79145
▁av	-7.79258
use	-7.79281
art	-7.7982
ice	-7.79859
ber	-7.80448
tic	-7.80471
pan	-7.80575
ific	-7.80801
▁thing	-7.81613
▁ret	-7.81755
ra	-7.82013
▁bos	-7.82145
rning	-7.82279
oid	-7.82365
gara	-7.82384
▁ad	-7.82817
▁thir	-7.84624
▁appl	-7.84987
way	-7.85465
ang	-7.85683
ous	-7.86348
▁wro	-7.86489
dit	-7.86984
▁roo	-7.87156
ies	-7.87201
card	-7.8722
ot	-7.87892
rect	-7.90121
ese	-7.91973
ether	-7.92464
▁ro	-7.9248
me	-7.93371
id	-7.94619
te	-7.95094
▁countr	-7.95404
tiv	-7.9547
▁sav	-7.96053
ffe	-7.96784
get	-7.97076
quar	-7.97123
equ	-7.97421
os	-7.98975
erg	-7.99627
mp	-7.99789
ca	-8.0016
gy	-8.00217
and	-8.00381
▁any	-8.00411
▁ove	-8.01797
▁sa	-8.02297
▁bi	-8.02667
ay	-8.03852
ge	-8.04215
ious	-8.04268
ront	-8.0527
▁en	-8.05749
▁ac	-8.06532
ac	-8.06797
▁br	-8.07394
los	-8.07921
▁go	-8.09019
▁dr	-8.10684
mid	-8.11242
▁wel	-8.11308
▁o	-8.11744
lar	-8.12157
ith	-8.12556
estaurants	-8.13299
come	-8.15863
sci	-8.17108
lease	-8.17846
thing	-8.17906
tch	-8.18185
ea	-8.18611
▁liter	-8.19029
▁thank	-8.19108
list	-8.19201
email	-8.19307
heat	-8.19479
▁hour	-8.19704
▁ga	-8.20012
va	-8.20625
we	-8.21536
ard	-8.21915
▁res	-8.22562
j	-8.22851
emperature	-8.232
fahrenheit	-8.232
kilometers	-8.232
▁celsius	-8.232
▁electr	-8.232
▁pharmacy	-8.232
▁value	-8.232
ppointment	-8.23201
▁doctor	-8.23201
▁exchange	-8.23201
▁gallons	-8.23201
▁screen	-8.23201
▁italian	-8.23201
▁guide	-8.23201
▁russia	-8.23201
script	-8.23201
▁fifteen	-8.23201
tractions	-8.23201
▁bank	-8.23202
▁machine	-8.23202
▁plus	-8.23203
▁task	-8.23206
▁contact	-8.23207
▁amaz	-8.23208
▁euro	-8.2321
▁feel	-8.23211
▁deep	-8.23212
▁honest	-8.23212
▁probab	-8.23213
▁stress	-8.23217
▁high	-8.23219
▁previous	-8.23221
ounce	-8.23233
▁washing	-8.23234
▁chinese	-8.23238
▁step	-8.2324
▁mount	-8.23242
▁pyth	-8.23258
▁data	-8.23274
▁mexic	-8.23285
▁relax	-8.23313
▁month	-8.23339
▁da	-8.23346
▁seventeen	-8.23354
▁advi	-8.23364
▁morning	-8.23376
▁phi	-8.23386
▁india	-8.23387
▁money	-8.23395
▁trail	-8.23425
crypt	-8.23436
be	-8.2347
▁goal	-8.23481
▁market	-8.23486
▁meters	-8.23535
▁leave	-8.23552
▁veg	-8.23561
▁lap	-8.23851
zz	-8.23897
▁at	-8.23925
▁ge	-8.2395
▁route	-8.23956
ance	-8.24031
▁rome	-8.24041
rus	-8.24113
▁ju	-8.24189
each	-8.24234
▁korea	-8.24264
iro	-8.24351
cess	-8.24381
▁moon	-8.24462
currency	-8.24505
rica	-8.24545
▁chin	-8.24576
▁ki	-8.2493
▁kilograms	-8.24938
▁miles	-8.25123
olo	-8.25196
▁park	-8.25225
▁spo	-8.25252
ash	-8.25281
▁lea	-8.25295
fect	-8.25451
▁date	-8.25642
ark	-8.25721
cket	-8.25724
mple	-8.25926
▁burn	-8.25998
sical	-8.26213
▁bl	-8.26281
▁lock	-8.26596
matic	-8.26711
z	-8.26981
se	-8.27482
▁hole	-8.27511
▁hot	-8.27921
▁qua	-8.27979
stor	-8.28011
▁wind	-8.28106
ken	-8.28268
here	-8.28606
▁pi	-8.28717
▁po	-8.28851
▁pleas	-8.29534
▁app	-8.29629
▁pa	-8.30176
▁liters	-8.30194
▁don	-8.3038
ney	-8.31317
▁bed	-8.31401
▁pri	-8.31573
iver	-8.31716
▁th	-8.31785
▁gra	-8.32036
fast	-8.32334
cation	-8.3281
rge	-8.33111
ite	-8.33852
ag	-8.34119
try	-8.34731
gent	-8.34917
▁ye	-8.35239
tle	-8.35657
pro	-8.36216
▁te	-8.36291
ent	-8.37122
na	-8.37267
bai	-8.3744
pe	-8.37536
▁che	-8.37781
▁soci	-8.38362
▁fir	-8.38587
rib	-8.38775
em	-8.39376
▁medit	-8.40834
min	-8.40867
restaurant	-8.41028
ause	-8.41283
racti	-8.42703
gori	-8.4285
ited	-8.43008
vation	-8.43846
▁af	-8.43962
bo	-8.44306
▁port	-8.45366
▁mar	-8.45889
▁inf	-8.46355
▁sk	-8.47338
▁serv	-8.47461
rmation	-8.48595
wat	-8.48827
ense	-8.49577
radi	-8.49764
▁ub	-8.50567
eath	-8.50798
▁news	-8.50951
ago	-8.51439
quit	-8.51472
serv	-8.51872
ert	-8.5203
▁u	-8.52622
▁come	-8.52638
rt	-8.5277
▁cy	-8.53528
▁pro	-8.53775
fer	-8.5394
▁mon	-8.54089
▁ti	-8.55183
inu	-8.55293
▁ni	-8.55667
amer	-8.56471
wer	-8.57679
▁cal	-8.57823
▁ag	-8.58055
hal	-8.58465
us	-8.59511
iffe	-8.59743
irst	-8.60268
wall	-8.60974
▁count	-8.61588
qu	-8.6165
hap	-8.62397
ike	-8.63458
ci	-8.64048
isco	-8.64563
lin	-8.64604
ri	-8.67266
ip	-8.68335
▁wif	-8.68568
▁ba	-8.6952
chu	-8.69708
nder	-8.69957
▁as	-8.70169
dge	-8.70768
rist	-8.70899
sc	-8.71959
rent	-8.72314
fo	-8.72347
▁ang	-8.73426
▁rec	-8.7355
aila	-8.73651
fi	-8.74127
v	-8.7434
▁v	-8.74693
ist	-8.75136
▁mean	-8.76248
▁fo	-8.76391
mer	-8.77031
iving	-8.77566
▁sm	-8.77706
for	-8.77782
any	-8.78405
▁math	-8.79152
eta	-8.7934
▁end	-8.80697
▁sh	-8.80896
api	-8.81056
preci	-8.82471
volu	-8.82563
mation	-8.83592
▁sun	-8.84872
rob	-8.85801
reci	-8.86056
un	-8.86063
▁fib	-8.8667
ef	-8.87272
nu	-8.87904
ze	-8.89305
tur	-8.89312
▁aut	-8.90151
war	-8.9062
▁ri	-8.90711
nci	-8.92091
▁he	-8.92142
am	-8.93154
▁even	-8.93362
rland	-8.93922
ld	-8.94025
umb	-8.94724
act	-8.95954
▁qui	-8.96217
read	-8.96227
▁ta	-8.9701
llo	-8.97205
oul	-8.97343
▁em	-8.9777
im	-8.97858
▁spe	-8.97991
▁and	-8.98075
erv	-8.98696
ore	-8.99047
lls	-8.99066
▁mos	-8.99322
▁com	-8.99347
age	-8.99677
▁alg	-9.00046
▁k	-9.00386
ff	-9.00763
▁cou	-9.01338
seum	-9.01535
▁par	-9.02588
oph	-9.04356
▁calcul	-9.05547
rate	-9.0573
ear	-9.0737
▁cl	-9.07682
▁ter	-9.08389
ding	-9.09649
aker	-9.09784
▁tri	-9.09867
ol	-9.13245
avi	-9.13853
▁wi	-9.13871
▁exa	-9.14934
di	-9.14967
▁stati	-9.15099
orit	-9.15398
inter	-9.15466
las	-9.15747
ia	-9.16593
wn	-9.1663
el	-9.16704
time	-9.1677
lock	-9.17697
block	-9.17837
▁disa	-9.18253
cond	-9.1859
liters	-9.18696
xi	-9.18831
▁kilogram	-9.18889
ext	-9.18902
new	-9.18924
schedule	-9.19007
order	-9.19237
▁pound	-9.19245
▁pac	-9.19336
ird	-9.19588
currenc	-9.19941
▁ser	-9.20003
▁exp	-9.20103
quen	-9.20128
▁fun	-9.20177
king	-9.20501
our	-9.20742
night	-9.2104
ure	-9.2125
pri	-9.21306
rian	-9.21371
ication	-9.2146
▁fran	-9.21643
bra	-9.21811
ire	-9.22148
▁comput	-9.22812
▁mile	-9.22836
orean	-9.22884
▁star	-9.22914
pital	-9.23077
can	-9.23129
lie	-9.23154
atio	-9.23163
rive	-9.23206
plane	-9.2338
ency	-9.23465
vious	-9.23486
▁after	-9.23555
ogra	-9.236
lax	-9.23775
▁fact	-9.24037
ix	-9.24136
able	-9.24174
shing	-9.2423
▁exc	-9.2432
▁pop	-9.24383
▁chan	-9.24463
ow	-9.24467
erno	-9.24478
grams	-9.24614
bil	-9.25237
point	-9.25407
▁bac	-9.25712
gh	-9.25821
cou	-9.26061
▁minu	-9.26253
gg	-9.26269
loud	-9.26414
▁oc	-9.26431
ink	-9.26656
fli	-9.26694
azi	-9.26706
▁rela	-9.2712
▁str	-9.27149
▁sea	-9.27501
day	-9.27519
ote	-9.27555
econ	-9.27656
cle	-9.27668
cr	-9.27994
uts	-9.28056
▁du	-9.28207
pres	-9.28235
infor	-9.28484
ab	-9.28851
▁ther	-9.28995
top	-9.29078
▁won	-9.29294
▁clo	-9.29377
▁sma	-9.29644
axi	-9.29758
▁st	-9.29775
lb	-9.29864
rou	-9.30707
ift	-9.30967
ula	-9.31053
▁y	-9.31143
meter	-9.31203
mar	-9.31454
tire	-9.31543
lation	-9.31699
ug	-9.31815
rid	-9.31937
shi	-9.32148
ex	-9.32198
de	-9.32364
vie	-9.32718
een	-9.33165
▁act	-9.33329
old	-9.33484
op	-9.34768
po	-9.34979
was	-9.35207
▁late	-9.35211
onic	-9.35273
sho	-9.35439
sol	-9.35813
▁sur	-9.36088
pp	-9.36925
action	-9.36968
uv	-9.38133
▁medi	-9.39034
ven	-9.39085
lec	-9.40124
oth	-9.40412
net	-9.4101
▁inve	-9.41246
ybe	-9.41339
▁rent	-9.42382
oes	-9.42386
▁rom	-9.42725
aves	-9.42817
▁nat	-9.42998
vi	-9.43033
pt	-9.43273
▁ital	-9.43274
nic	-9.43381
ature	-9.44224
ud	-9.44276
acy	-9.44984
rest	-9.45925
up	-9.46642
▁prob	-9.47032
tal	-9.47089
ean	-9.47335
lass	-9.47774
ows	-9.47919
ental	-9.48383
▁ninet	-9.48929
▁fa	-9.48935
own	-9.49082
sia	-9.4925
ob	-9.50039
ran	-9.50076
hed	-9.50126
▁mac	-9.50249
▁na	-9.50279
lor	-9.50896
▁pr	-9.52033
enti	-9.52283
ose	-9.53611
ivi	-9.55031
▁sou	-9.55036
▁tel	-9.554
ica	-9.55688
ti	-9.56052
ule	-9.57564
rea	-9.59282
mo	-9.60422
▁lis	-9.61191
bas	-9.61544
la	-9.62328
ste	-9.62412
ers	-9.63022
ou	-9.63106
tions	-9.64237
▁meet	-9.66379
giv	-9.68501
▁or	-9.68699
▁wo	-9.71739
ual	-9.72461
ight	-9.73494
▁ko	-9.73574
ulu	-9.73926
▁cont	-9.75127
▁colo	-9.7522
ess	-9.75234
▁den	-9.76465
▁dist	-9.77382
▁sevent	-9.77389
▁eve	-9.79169
sed	-9.79706
▁hou	-9.80465
ten	-9.81481
ps	-9.81911
q	-10.5377
