<pad>	0
<unk>	0
<bos>	0
<eos>	0
<blank>	0
s	-3.173
▁what	-3.21686
▁the	-3.44736
▁is	-3.45637
▁	-3.54203
y	-3.61479
▁a	-3.80888
▁me	-3.86073
▁m	-3.99486
▁to	-4.25588
e	-4.41471
t	-4.44996
▁show	-4.58372
▁how	-4.7723
d	-4.77251
▁in	-4.81282
▁i	-4.99798
a	-5.13916
▁for	-5.23716
▁of	-5.26798
▁play	-5.30219
▁on	-5.31156
▁t	-5.31376
▁do	-5.31396
▁that	-5.3781
ing	-5.3797
▁im	-5.38644
est	-5.42637
▁it	-5.46269
m	-5.46965
▁s	-5.52657
▁w	-5.53675
▁this	-5.53977
ic	-5.56825
o	-5.57345
▁se	-5.68071
urn	-5.68152
▁you	-5.68914
▁re	-5.71183
▁an	-5.72868
ly	-5.78041
▁near	-5.78991
▁time	-5.84764
▁who	-5.85225
r	-5.89591
tell	-5.89789
n	-5.92541
▁fin	-5.9605
end	-5.96246
ate	-5.97056
▁monica	-5.97735
▁meeting	-5.97752
▁call	-5.98011
▁f	-6.01727
▁where	-6.04955
lo	-6.05128
st	-6.08589
▁are	-6.11233
▁remind	-6.12321
le	-6.12542
▁check	-6.12578
▁stop	-6.12616
en	-6.12742
▁ten	-6.13766
ch	-6.13813
▁was	-6.1417
out	-6.152
▁co	-6.16479
▁good	-6.20902
▁two	-6.20903
▁minute	-6.20935
▁ab	-6.22179
▁we	-6.23466
al	-6.2385
many	-6.24016
on	-6.24763
i	-6.25159
▁con	-6.25322
take	-6.27768
es	-6.28553
▁explain	-6.29992
▁trans	-6.30012
▁price	-6.30012
▁start	-6.30071
▁when	-6.30245
▁did	-6.30386
▁list	-6.30704
p	-6.32035
ther	-6.33864
late	-6.34429
▁new	-6.3647
nt	-6.37628
l	-6.38102
ver	-6.38616
▁cancel	-6.39992
▁defin	-6.39997
nd	-6.40042
▁be	-6.40202
ation	-6.40238
▁flight	-6.40591
▁mus	-6.41077
▁hel	-6.4261
▁one	-6.44548
▁p	-6.45372
▁movie	-6.51106
▁up	-6.51435
▁bu	-6.52646
▁b	-6.53414
er	-6.53858
▁ca	-6.5446
u	-6.54788
by	-6.55597
▁mu	-6.56706
nver	-6.60859
an	-6.61982
▁next	-6.63623
▁today	-6.63772
▁g	-6.63793
▁off	-6.64252
▁timer	-6.64328
▁read	-6.64489
▁cre	-6.64926
▁air	-6.64928
ack	-6.65043
ell	-6.65523
▁lights	-6.65983
▁fi	-6.6662
f	-6.66859
▁de	-6.68603
ed	-6.68704
ind	-6.69432
is	-6.69509
some	-6.70227
▁un	-6.7067
▁tr	-6.71261
▁c	-6.72277
▁am	-6.7314
port	-6.7434
ke	-6.75191
▁d	-6.7758
▁wh	-6.77823
▁message	-6.77889
▁fifty	-6.77891
▁restaurants	-6.78249
ake	-6.79186
▁work	-6.79669
side	-6.79882
▁car	-6.81262
ar	-6.83177
▁sy	-6.83733
ng	-6.84364
ity	-6.85279
▁qu	-6.87361
ence	-6.88619
om	-6.89268
▁wor	-6.89952
g	-6.91744
in	-6.94539
▁afternoon	-6.94555
▁number	-6.94556
▁york	-6.94556
▁ocean	-6.94557
▁week	-6.94561
▁happ	-6.94564
▁capital	-6.94571
▁world	-6.94575
▁change	-6.9458
phone	-6.94674
▁e	-6.94723
comm	-6.94796
all	-6.94803
▁n	-6.9487
ck	-6.95221
▁reminder	-6.9523
ok	-6.95433
▁email	-6.95655
▁doing	-6.96611
▁calculat	-6.96692
▁can	-6.97409
▁note	-6.98092
▁tra	-6.99225
ur	-7.01199
dd	-7.01515
most	-7.01665
▁there	-7.01669
ter	-7.01935
▁see	-7.03357
et	-7.03602
um	-7.03608
▁di	-7.03622
▁out	-7.04901
ve	-7.05267
▁dis	-7.0728
ion	-7.07619
c	-7.08636
▁h	-7.09438
ce	-7.10216
ton	-7.10936
▁war	-7.1158
re	-7.11891
ill	-7.12503
ive	-7.13415
li	-7.1359
▁john	-7.14556
▁planet	-7.14558
ustra	-7.14564
▁have	-7.14573
▁japan	-7.14573
▁hotel	-7.14577
▁stock	-7.1458
▁pause	-7.14618
ove	-7.14644
ain	-7.14672
▁help	-7.14816
▁right	-7.1482
▁five	-7.15113
▁order	-7.15299
▁del	-7.16437
teen	-7.16562
▁say	-7.16594
▁day	-7.16943
iz	-7.17546
▁shop	-7.18391
▁rid	-7.18763
▁no	-7.19817
b	-7.20236
at	-7.21116
▁far	-7.2112
it	-7.21852
k	-7.22383
▁ne	-7.22634
ant	-7.24025
▁su	-7.24185
ig	-7.24831
▁wa	-7.24962
▁sp	-7.25101
▁al	-7.2649
▁fro	-7.26628
▁op	-7.27012
▁hi	-7.27304
or	-7.28091
ll	-7.31282
syn	-7.31629
ad	-7.32216
▁mo	-7.32228
▁ho	-7.32293
sic	-7.32598
▁mom	-7.33575
x	-7.35211
▁your	-7.3537
▁nine	-7.35698
▁so	-7.35711
tion	-7.3574
▁light	-7.3589
▁not	-7.36044
ne	-7.36312
ial	-7.37407
▁bo	-7.38087
▁language	-7.39555
▁spanish	-7.39555
▁document	-7.39556
▁sleep	-7.39556
▁twenty	-7.39556
▁hundred	-7.39556
▁percent	-7.39556
▁invented	-7.39556
▁tokyo	-7.39557
▁america	-7.39557
▁milk	-7.39581
▁thirty	-7.39591
▁prime	-7.39624
▁down	-7.39644
▁cold	-7.39658
▁long	-7.39669
▁table	-7.39701
▁six	-7.39704
▁zo	-7.39777
▁due	-7.39804
▁home	-7.39816
▁back	-7.39978
▁eight	-7.39983
▁night	-7.40159
▁tv	-7.40237
▁door	-7.4024
▁ja	-7.40283
▁block	-7.40558
▁la	-7.40834
▁jo	-7.4099
to	-7.41161
▁eg	-7.41308
▁hours	-7.41315
▁pre	-7.42184
th	-7.42717
▁rem	-7.42744
▁stor	-7.43762
log	-7.43833
▁li	-7.44394
▁sound	-7.4485
eat	-7.44944
▁lo	-7.46002
▁fre	-7.46561
tom	-7.48136
ness	-7.48221
▁l	-7.4842
▁vol	-7.48533
ro	-7.49243
eum	-7.49882
ete	-7.50115
are	-7.50736
as	-7.51352
ap	-7.52105
ume	-7.52315
phy	-7.5299
▁hu	-7.53004
ute	-7.55092
ord	-7.55835
tem	-7.56378
ower	-7.56387
arm	-7.56566
▁make	-7.56966
▁r	-7.57314
▁ma	-7.59625
les	-7.5968
ment	-7.60537
ry	-7.60907
red	-7.61202
ul	-7.61359
w	-7.61733
does	-7.62438
▁seven	-7.63376
ami	-7.644
il	-7.64563
the	-7.64755
ym	-7.64966
▁fl	-7.65236
ange	-7.65778
ted	-7.67249
work	-7.68031
▁fr	-7.68215
h	-7.69386
▁sol	-7.69629
ries	-7.70126
land	-7.70214
nos	-7.71853
▁ar	-7.71869
bu	-7.71995
▁net	-7.7264
▁pho	-7.72802
▁vo	-7.72846
security	-7.72889
▁bitcoin	-7.72889
▁project	-7.72889
▁tomorrow	-7.72889
▁twelve	-7.72889
▁focus	-7.72889
▁dollars	-7.72889
▁grocer	-7.72889
▁health	-7.72889
▁calendar	-7.72889
▁circ	-7.72889
▁atlant	-7.72889
▁london	-7.7289
▁internet	-7.7289
▁zero	-7.7289
▁earth	-7.72891
▁blue	-7.72893
▁score	-7.72893
▁three	-7.72896
▁great	-7.72897
▁clear	-7.72897
▁speak	-7.72897
source	-7.729
▁popula	-7.72902
▁feet	-7.72907
▁german	-7.72912
▁think	-7.72915
▁factor	-7.72915
▁bills	-7.72918
▁close	-7.72921
▁cloud	-7.72929
gree	-7.72931
▁rental	-7.72943
▁color	-7.72967
▁mode	-7.72976
▁paris	-7.72983
▁computer	-7.72986
▁beach	-7.72998
▁game	-7.73027
▁water	-7.73052
▁four	-7.73085
▁statu	-7.73111
▁comp	-7.73153
▁need	-7.73221
▁song	-7.73235
▁going	-7.73254
▁mi	-7.73375
▁deal	-7.73391
▁tip	-7.73405
▁tex	-7.73469
▁workout	-7.73501
ypt	-7.73589
▁mark	-7.73673
▁sure	-7.73746
▁old	-7.73791
▁schedule	-7.73897
vide	-7.7391
▁las	-7.73914
▁pounds	-7.73921
used	-7.73988
▁listen	-7.74013
▁rain	-7.7404
▁city	-7.74091
▁le	-7.74388
lia	-7.74635
▁rep	-7.74867
▁per	-7.74941
▁hear	-7.75038
unny	-7.75188
▁vac	-7.75267
ft	-7.75409
▁thanks	-7.75479
her	-7.75684
nch	-7.75739
▁vi	-7.7583
▁sho	-7.75831
▁pay	-7.75878
▁ch	-7.76027
▁franc	-7.76057
bert	-7.76121
▁heat	-7.76165
ty	-7.76954
now	-7.76975
tein	-7.77666
▁ex	-7.77862
▁shar	-7.78177
▁ret	-7.78688
▁brea	-7.78828
▁av	-7.78839
use	-7.78936
ice	-7.79568
art	-7.79696
tic	-7.80125
ber	-7.8026
ific	-7.8049
pan	-7.81054
▁thing	-7.81201
▁ad	-7.813
ra	-7.81304
▁bos	-7.81833
rning	-7.81964
oid	-7.8216
gara	-7.8222
▁appl	-7.84132
▁thir	-7.84289
ang	-7.854
way	-7.85644
ous	-7.86014
▁wro	-7.86195
dit	-7.86628
▁roo	-7.86762
ies	-7.8689
▁ro	-7.87116
card	-7.8715
ot	-7.89445
rect	-7.89949
ese	-7.91653
ether	-7.92491
me	-7.93528
id	-7.94253
te	-7.94866
▁countr	-7.95087
tiv	-7.95106
▁sav	-7.95707
ffe	-7.96378
quar	-7.96859
equ	-7.97247
get	-7.97499
os	-7.98518
erg	-7.99274
mp	-7.99408
gy	-7.99896
ca	-7.99978
▁any	-8.0001
and	-8.00124
▁ove	-8.0125
▁sa	-8.01662
▁bi	-8.0233
ay	-8.03799
ious	-8.03967
ge	-8.04122
▁en	-8.04606
ront	-8.0521
▁ac	-8.05636
ac	-8.06609
▁br	-8.07004
los	-8.08362
▁go	-8.08635
▁dr	-8.10126
▁o	-8.1051
▁wel	-8.11001
mid	-8.1115
ith	-8.12148
lar	-8.12486
come	-8.15702
sci	-8.17232
lease	-8.17555
thing	-8.17744
tch	-8.1787
ea	-8.17937
▁liter	-8.18716
▁thank	-8.18796
list	-8.19002
email	-8.19077
heat	-8.19257
▁hour	-8.19391
▁ga	-8.19668
va	-8.20386
we	-8.21374
ard	-8.21575
▁at	-8.22366
j	-8.22547
▁ge	-8.22841
▁da	-8.22875
▁electr	-8.22888
▁appointment	-8.22889
▁celsius	-8.22889
▁fahrenheit	-8.22889
▁kilometers	-8.22889
▁pharmacy	-8.22889
▁temperature	-8.22889
▁value	-8.22889
▁doctor	-8.22889
▁exchange	-8.22889
▁gallons	-8.22889
▁italian	-8.22889
▁guide	-8.22889
▁screen	-8.22889
▁russia	-8.22889
script	-8.2289
▁fifteen	-8.2289
tractions	-8.2289
▁bank	-8.2289
▁machine	-8.22891
▁plus	-8.22892
▁task	-8.22894
▁contact	-8.22896
▁amaz	-8.22896
▁euro	-8.22898
▁feel	-8.22899
▁deep	-8.229
▁honest	-8.229
▁probab	-8.22901
▁stress	-8.22905
▁high	-8.22907
▁previous	-8.2291
ounce	-8.22921
▁washing	-8.22923
▁chinese	-8.22926
▁step	-8.22928
▁mount	-8.2293
▁pyth	-8.22946
▁data	-8.22962
▁mexic	-8.22974
▁relax	-8.22989
▁month	-8.23028
▁seventeen	-8.23043
▁advi	-8.23052
▁morning	-8.23065
▁phi	-8.23074
▁india	-8.23076
▁money	-8.23084
▁trail	-8.23115
crypt	-8.2313
▁goal	-8.2317
▁market	-8.23175
▁meters	-8.23223
▁veg	-8.2324
▁leave	-8.23241
be	-8.23281
▁route	-8.2348
▁lap	-8.23539
zz	-8.23586
▁rome	-8.23667
ance	-8.23711
rus	-8.23783
▁ju	-8.23877
each	-8.23912
▁korea	-8.23944
iro	-8.24038
cess	-8.2407
▁moon	-8.24152
currency	-8.24198
rica	-8.2422
▁chin	-8.24268
▁ki	-8.24615
▁kilograms	-8.24627
▁miles	-8.24813
olo	-8.24818
▁park	-8.24914
▁spo	-8.2494
ash	-8.24953
▁lea	-8.24972
fect	-8.25166
▁date	-8.25329
cket	-8.25381
ark	-8.25409
mple	-8.25626
▁burn	-8.25693
sical	-8.25907
▁bl	-8.25971
▁lock	-8.26218
matic	-8.26406
z	-8.26686
▁hole	-8.27207
se	-8.27419
▁qua	-8.27568
▁hot	-8.27607
stor	-8.27761
▁wind	-8.27803
ken	-8.27962
▁pi	-8.28337
here	-8.28357
▁po	-8.28476
▁pleas	-8.29229
▁app	-8.29247
▁pa	-8.29397
▁liters	-8.29834
▁don	-8.30178
ney	-8.31021
▁bed	-8.31107
▁pri	-8.31209
▁th	-8.31419
▁res	-8.31492
▁gra	-8.31694
fast	-8.32131
rge	-8.32239
cation	-8.32518
ite	-8.33531
ag	-8.33904
▁ye	-8.33928
try	-8.34601
gent	-8.34843
tle	-8.35345
pro	-8.35953
na	-8.36875
ent	-8.37061
bai	-8.37113
▁che	-8.3739
▁fir	-8.37683
pe	-8.37874
iver	-8.37964
▁te	-8.38017
▁soci	-8.38053
rib	-8.3844
em	-8.39479
min	-8.40508
▁medit	-8.40545
ause	-8.41068
racti	-8.42385
gori	-8.42583
ited	-8.42704
▁af	-8.43388
bo	-8.43483
▁port	-8.44606
▁mar	-8.45516
▁inf	-8.45753
▁sk	-8.46899
vation	-8.46917
▁serv	-8.47076
serv	-8.47631
rmation	-8.47673
wat	-8.48504
ense	-8.49323
radi	-8.49441
eath	-8.50166
▁ub	-8.5019
▁news	-8.50641
ago	-8.51135
quit	-8.51605
ert	-8.51619
▁u	-8.51797
▁come	-8.52133
rt	-8.52138
▁cy	-8.53215
▁pro	-8.53361
fer	-8.53609
▁mon	-8.53848
▁ti	-8.53982
inu	-8.55011
▁ni	-8.55118
amer	-8.56291
wer	-8.56557
▁ag	-8.5721
▁cal	-8.57608
hal	-8.58596
us	-8.59171
iffe	-8.59573
irst	-8.60385
wall	-8.61201
qu	-8.61278
▁count	-8.61289
hap	-8.61966
ike	-8.63286
ci	-8.64048
isco	-8.64292
lin	-8.64334
ri	-8.66283
ip	-8.67558
▁wif	-8.68295
▁as	-8.68335
▁ba	-8.69135
chu	-8.69383
nder	-8.69737
dge	-8.70506
rist	-8.70531
▁rec	-8.71626
sc	-8.71644
fo	-8.7173
▁ang	-8.72005
rent	-8.72119
aila	-8.73343
fi	-8.73617
▁v	-8.74138
v	-8.74354
ist	-8.74945
any	-8.7567
▁fo	-8.75846
▁mean	-8.76008
▁ri	-8.7627
for	-8.76759
mer	-8.76776
▁sm	-8.7711
iving	-8.77233
eta	-8.78589
▁math	-8.7885
▁end	-8.79328
api	-8.80507
▁sh	-8.8051
volu	-8.83068
rate	-8.83818
preci	-8.83896
reci	-8.83936
mation	-8.84112
▁sun	-8.84558
rob	-8.85577
un	-8.85856
▁fib	-8.86371
nu	-8.87511
ef	-8.8773
ze	-8.88977
tur	-8.89155
▁aut	-8.89642
war	-8.90227
▁he	-8.91847
nci	-8.91907
▁even	-8.92472
am	-8.93244
rland	-8.93623
ld	-8.93651
▁ta	-8.9403
umb	-8.94441
▁qui	-8.95337
act	-8.95812
read	-8.96084
▁em	-8.97001
oul	-8.97018
llo	-8.97123
▁and	-8.97318
▁spe	-8.97679
▁mos	-8.97847
im	-8.9792
ore	-8.98392
lls	-8.98829
age	-8.98993
▁com	-8.98998
erv	-8.99162
▁alg	-8.99641
▁k	-8.99961
ff	-9.00631
▁cou	-9.00923
seum	-9.01239
▁par	-9.02267
oph	-9.0397
▁calcul	-9.05194
▁ter	-9.05815
▁cl	-9.07346
ear	-9.07926
aker	-9.08611
ding	-9.08947
▁tri	-9.09237
ol	-9.12963
▁wi	-9.13615
avi	-9.13626
▁exa	-9.14615
▁stati	-9.1467
di	-9.1486
orit	-9.15071
inter	-9.15329
las	-9.15651
ia	-9.16103
wn	-9.16278
time	-9.16611
el	-9.16845
lock	-9.1755
block	-9.17642
▁disa	-9.17959
xi	-9.18359
cond	-9.18435
liters	-9.18506
▁kilogram	-9.18577
ire	-9.18706
new	-9.18723
schedule	-9.18785
▁pound	-9.18933
▁pac	-9.19025
order	-9.19046
▁restaurant	-9.19106
ird	-9.19293
▁ser	-9.19331
currenc	-9.1962
quen	-9.19782
▁exp	-9.19796
▁fun	-9.19835
king	-9.20195
night	-9.20802
ure	-9.20803
our	-9.2109
pri	-9.21108
rian	-9.21184
ication	-9.21222
▁fran	-9.21323
bra	-9.2154
rive	-9.22168
▁comput	-9.225
▁mile	-9.22529
orean	-9.22569
▁star	-9.22597
ext	-9.22633
pital	-9.22765
atio	-9.22875
can	-9.22945
plane	-9.2307
lie	-9.23106
ency	-9.23154
vious	-9.23174
▁after	-9.23244
ogra	-9.23289
lax	-9.23497
▁fact	-9.23721
ix	-9.23828
able	-9.23891
shing	-9.23918
▁exc	-9.2401
▁pop	-9.24072
ow	-9.24125
▁chan	-9.24148
erno	-9.24164
grams	-9.24338
bil	-9.24929
point	-9.2515
▁bac	-9.25402
gh	-9.25508
cou	-9.25784
▁minu	-9.25948
gg	-9.25982
▁oc	-9.26105
loud	-9.26178
ink	-9.26341
azi	-9.26352
▁rela	-9.26362
fli	-9.26385
▁str	-9.26733
▁sea	-9.27014
▁ther	-9.27055
ote	-9.27225
cle	-9.2736
day	-9.27399
econ	-9.27409
cr	-9.27518
uts	-9.27745
▁du	-9.27883
pres	-9.27885
▁st	-9.28447
ab	-9.28606
top	-9.28767
▁won	-9.28948
▁y	-9.29019
▁clo	-9.29075
▁sma	-9.29302
lb	-9.29552
axi	-9.29636
rou	-9.30309
ift	-9.30665
ula	-9.30715
infor	-9.30788
meter	-9.30896
mar	-9.31297
lation	-9.31397
ug	-9.31525
rid	-9.31606
shi	-9.31783
ex	-9.32178
de	-9.32296
vie	-9.32397
▁act	-9.32678
een	-9.32839
old	-9.33432
▁late	-9.34231
tire	-9.34711
op	-9.3484
po	-9.34945
onic	-9.34983
was	-9.35007
sho	-9.35171
sol	-9.35566
▁sur	-9.35636
pp	-9.36297
action	-9.36964
uv	-9.38094
▁medi	-9.38758
ven	-9.39087
lec	-9.39767
oth	-9.40029
▁rent	-9.40402
▁rom	-9.40583
net	-9.40877
▁inve	-9.40978
ybe	-9.41082
oes	-9.41997
aves	-9.42501
▁nat	-9.42502
vi	-9.42923
pt	-9.4293
▁ital	-9.42973
nic	-9.43727
ud	-9.43915
ature	-9.44004
acy	-9.44675
▁prob	-9.46724
tal	-9.46735
up	-9.46763
rest	-9.46913
ean	-9.4695
lass	-9.47452
ows	-9.47534
ental	-9.47979
▁ninet	-9.48623
own	-9.48794
sia	-9.49003
▁fa	-9.49154
▁na	-9.49491
ran	-9.49524
hed	-9.49777
▁mac	-9.49898
lor	-9.50194
▁pr	-9.51642
▁tel	-9.51982
enti	-9.5207
ob	-9.52197
ose	-9.53272
▁sou	-9.5461
ivi	-9.54773
ica	-9.55329
ti	-9.55921
ule	-9.57182
rea	-9.59097
mo	-9.60328
▁lis	-9.60871
bas	-9.61219
ste	-9.61955
ers	-9.62549
la	-9.62788
ou	-9.63678
tions	-9.63862
▁meet	-9.66174
▁or	-9.66956
giv	-9.68994
▁wo	-9.71493
ual	-9.72075
▁ko	-9.72675
ight	-9.73184
ulu	-9.73677
▁cont	-9.74832
▁colo	-9.75056
ess	-9.75208
▁den	-9.75821
▁dist	-9.7692
▁sevent	-9.77075
sed	-9.79287
▁eve	-9.7941
▁hou	-9.80214
ten	-9.8145
ps	-9.81765
urs	-9.81982
q	-10.5334
